/**
  ******************************************************************************
  * @file    network_ecblobs.h
  * @brief   NN Code autogenerated DO NOT MODIFY IT
  ******************************************************************************
  * @attention
  *
  * Copyright (c) 2024 STMicroelectronics.
  * All rights reserved.
  *
  * This software is licensed under terms that can be found in the LICENSE file
  * in the root directory of this software component.
  * If no LICENSE file comes with this software, it is provided AS-IS.
  *
  ******************************************************************************
  */


#ifdef __cplusplus
extern "C" {
#endif

#include "ll_aton_caches_interface.h"

#include <string.h>

#if !defined(ECBLOB_CONST_SECTION)
#define ECBLOB_CONST_SECTION /* Empty */
#endif
#if !defined(ECBLOB_RUNTIME_SECTION)
#define ECBLOB_RUNTIME_SECTION /* Empty */
#endif

ECBLOB_CONST_SECTION
// aligned to the cache line size (equal to 64 bytes)
__attribute__((aligned(64)))
static const uint64_t _ec_blob_network_2[1288] =
{
  0x00000a07ca057a7aUL, 0x0000007d0000005dUL, 0x3c007c0000802141UL, 0x3c0200e300000054UL,
  0x0000110010020101UL, 0x0001000210a34101UL, 0xffff0000ffff0000UL, 0x3c0a7c0000000001UL,
  0x3c0c004300000000UL, 0x0000000000000009UL, 0x5c00004200802241UL, 0x156000fc08000000UL,
  0x000980005c020123UL, 0x0000000f00000000UL, 0x0000007f0000000fUL, 0x0000000000000000UL,
  0x00000001060403f1UL, 0x000000005c0c0043UL, 0x5c0b7c0020422042UL, 0x5d00200300000001UL,
  0x00002312faaf3594UL, 0x000063b6fc944d5eUL, 0x0000a385fb56266bUL, 0x0000278efb1e4cd5UL,
  0x0000d54dfb421db3UL, 0x000094f5fcc11feeUL, 0x0000d861fcab59dfUL, 0x0000c9a7fd1c207fUL,
  0x0000e385fc723a03UL, 0x0000135dfb80413cUL, 0x00001384fb8b4e76UL, 0x0000a310fc58487fUL,
  0x000039b6fd2a0e52UL, 0x00008877fc51555eUL, 0x0000ae4cfb4b3bfdUL, 0x000038e4fb384e90UL,
  0x000016f8fab23e31UL, 0x00009912fc3e5503UL, 0x0000edcbfb245147UL, 0x0000fe61facb319bUL,
  0x0000ad47fd3b2c3cUL, 0x0000f910fb12590aUL, 0x0000546bfbcd44a2UL, 0x0000258efc543937UL,
  0x0000e34efbf82a57UL, 0x0000a0cdfb045b47UL, 0x00009830fae7290eUL, 0x0000e3fbfd113db2UL,
  0x00004aacfc31495dUL, 0x00006d4cfd283fc5UL, 0x000021a8fb772bb7UL, 0x00002728fc5837eeUL,
  0x000014c1fb95335aUL, 0x00005339fbd8156eUL, 0x00005af5fb1657c4UL, 0x0000a634fc684868UL,
  0x00005e38fc614ec1UL, 0x000032b8fbe45157UL, 0x00003971fba55268UL, 0x00007e9cfb243d1dUL,
  0x00000689fce35558UL, 0x00004689fae65a6fUL, 0x00007579fc91162aUL, 0x00009316fb792c9bUL,
  0x000047affb4539bbUL, 0x00001719fc27310eUL, 0x00009412fb4445d7UL, 0x0000dc84fc425d06UL,
  0x00004112fc37301dUL, 0x00000653faf04a44UL, 0x0000596cfc28578aUL, 0x0000b0d7fc9426ecUL,
  0x00008a14fc7557dbUL, 0x00008f82fbc34603UL, 0x00001954fae10d99UL, 0x000072b9fbb8396cUL,
  0x00007b6efc635576UL, 0x00003790fb6f4ca9UL, 0x000067c4fca409a4UL, 0x00003c0efcf70fb2UL,
  0x0000de9bfb512969UL, 0x00006b6efbf22e5bUL, 0x00009254fc7b585dUL, 0x0000b111fc092d1cUL,
  0x00002cfafc0b4c4bUL, 0x0000e63ffc1c1703UL, 0x0000b726faf841f3UL, 0x00006db1fbfb4104UL,
  0x00003cadfd0205bcUL, 0x00005514fd383dacUL, 0x00009caefcc45889UL, 0x00004db4fc1b587aUL,
  0x0000de1cfca251c1UL, 0x00000daffb47406bUL, 0x0000c085faca4993UL, 0x0000106cfac75847UL,
  0x00004a9cfd6033d5UL, 0x0000344cfcd75901UL, 0x00005c9ffafe4789UL, 0x0000067bfc8027aeUL,
  0x00005c1bfd1c0e94UL, 0x00003420fd545380UL, 0x00001feefd411060UL, 0x0000fd83fd0b2977UL,
  0x000073f4fb9552e8UL, 0x00002fe6fb735341UL, 0x000092a3fd1754c0UL, 0x00006badfcb954d7UL,
  0x00005ad5fb392fcbUL, 0x0000ff36fd314c50UL, 0x0000d564fcb40feeUL, 0x00000c04fcb44331UL,
  0x0000502ffb233141UL, 0x00004ec5fc571511UL, 0x0000bb00fb764ef8UL, 0x00008df8fd0c4955UL,
  0x00000e60fbaf426aUL, 0x0000ca51fc734083UL, 0x0000938dfc2133a0UL, 0x0000b7f9fc8c3a26UL,
  0x0000e5ebfb843ddaUL, 0x00002c74fca4419eUL, 0x000013b4fb00449aUL, 0x0000a4e5fc3f50a8UL,
  0x0000b760fb1e26d6UL, 0x0000bf86faa611e7UL, 0x000050dffaf81bfbUL, 0x0000405efd260ca2UL,
  0x00000e2efcb848e2UL, 0x000023d9fd3f4d2fUL, 0x0000d60dfd175b9cUL, 0x0000d4defad82866UL,
  0x00002d65fb0651feUL, 0x000000d3fbb74319UL, 0x00001341fb2223c1UL, 0x00005555fced4f79UL,
  0x000056b7fb025748UL, 0x00000d57fb4e3d1bUL, 0x0000ad4afa9d41e6UL, 0x0000d47afb3a2b83UL,
  0x00006dfcfd1d46abUL, 0x00007a24fd3b15e8UL, 0x00005e6bfcf1593aUL, 0x00000028fd074d91UL,
  0x0000da98fd460e2fUL, 0x0000aff1fb97330fUL, 0x00003f8efc8f4e5cUL, 0x000062befd3837fbUL,
  0x6000004200802261UL, 0x1500000008000000UL, 0x0007000060027c00UL, 0x0000400060070043UL,
  0x600c004300000020UL, 0x1041104100000000UL, 0x2c007c00008020c1UL, 0x2c0200430008c100UL,
  0x00000002342e0080UL, 0x000000002c0500c3UL, 0x0000000100000002UL, 0x0000002400000000UL,
  0x2c0c004200100000UL, 0x0000000700000006UL, 0x000000082c0d0043UL, 0x2c110043342e00c7UL,
  0x0000000000000000UL, 0x18007c0000802021UL, 0x180200430008c184UL, 0x0000010070390040UL,
  0x00000000180500c3UL, 0x0000000000000000UL, 0x0000002400000000UL, 0x180c004200100000UL,
  0x0000000700000006UL, 0x00000001180d0043UL, 0x181100437039017fUL, 0x0000000800000000UL,
  0x28007c00008020a1UL, 0x2802004300080108UL, 0x00000010342e0000UL, 0x00000000280500c3UL,
  0x0000000000000010UL, 0x0000002400000000UL, 0x280c004200100000UL, 0x0000000700000006UL,
  0x00000008280d0043UL, 0x28110043342e00bfUL, 0x0000000000000000UL, 0x0000000210007c00UL,
  0x0000006410000424UL, 0x10007c0000000000UL, 0x10007bc440000000UL, 0x0000000000000064UL,
  0x0000000110007c00UL, 0x0000002710077c00UL, 0x0000000d100c0043UL, 0x101e7c0000000003UL,
  0x10207c0000000015UL, 0x2800200100000025UL, 0x000000553c007c00UL, 0x600020015c002001UL,
  0x2c00200118002001UL, 0x0000006428007fe4UL, 0x10077c0000000000UL, 0x100c004300000000UL,
  0x0000000000000000UL, 0x00000000101e7c00UL, 0x0000000010207c00UL, 0x0000000228007c00UL,
  0x0000006428000424UL, 0x28007c0000000000UL, 0x28007bc440000000UL, 0x0000000000000064UL,
  0x3c007c00008000a1UL, 0x3c00042400000002UL, 0x0000000000000064UL, 0x400000003c007c00UL,
  0x000000643c007bc4UL, 0x0080014100000000UL, 0x080000025c007c00UL, 0x000000645c000424UL,
  0x5c007c0000000000UL, 0x5c007bc448000000UL, 0x0000000000000064UL, 0x60007c0000800241UL,
  0x6000042408000002UL, 0x0000000000000064UL, 0x4800000060007c00UL, 0x0000006460007bc4UL,
  0x0080026100000000UL, 0x0000000218007c00UL, 0x0000006418000424UL, 0x18007c0000000000UL,
  0x18007bc440000000UL, 0x0000000000000064UL, 0x2c007c0000800021UL, 0x2c00042400000002UL,
  0x0000000000000064UL, 0x400000002c007c00UL, 0x000000642c007bc4UL, 0x008000c100000000UL,
  0x008021610000009dUL, 0x10d0003440007c00UL, 0x10800101400200e3UL, 0x10e3440400001100UL,
  0xffff000000010080UL, 0x00000001ffff0000UL, 0x00000000400a7c00UL, 0x00000000400d7c00UL,
  0x6400004200802281UL, 0x156000fc08000000UL, 0x0009800064020123UL, 0x0000000f00000000UL,
  0x0000007f0000000fUL, 0x0000000000000000UL, 0x00000001060403f1UL, 0x00000000640c0043UL,
  0x640b7c0020422042UL, 0x6500200300000001UL, 0x0000b0a3fbf04895UL, 0x00004f9bfbd44bc3UL,
  0x00007eaafbe842b8UL, 0x0000ab7bfbd9462fUL, 0x0000cf08fc1d38afUL, 0x000089d1fbf152f6UL,
  0x0000e706fc1b471eUL, 0x00009bbcfbc45b40UL, 0x00006bd0fc0c4213UL, 0x0000d446fbcc5472UL,
  0x00009d3cfbe95081UL, 0x0000ae77fbe54cf2UL, 0x0000a873fbbc5558UL, 0x0000b0eafbde2e0cUL,
  0x0000b810fbd44146UL, 0x0000d619fbf43103UL, 0x00002f19fbe75766UL, 0x000093eefbc458b3UL,
  0x00008003fc043c0aUL, 0x000076c1fc0155a9UL, 0x0000d427fbf048f0UL, 0x00009578fc0b54baUL,
  0x0000b4d6fbf25514UL, 0x00005b11fc1a36a2UL, 0x0000f20efbf74831UL, 0x0000cffffbeb5827UL,
  0x000074e0fbeb4ceaUL, 0x00001c47fbe14fc6UL, 0x00000c95fbe24f0cUL, 0x00009dcdfc004a43UL,
  0x000034dcfbe232c9UL, 0x0000d865fc084398UL, 0x0000337dfbd35526UL, 0x000067bffbf33576UL,
  0x0000d2d2fbea4cb1UL, 0x00008ad1fbe92ffcUL, 0x000029d4fc134ddfUL, 0x00001de3fbc44835UL,
  0x00005c26fc0953e4UL, 0x00009c78fbcf3506UL, 0x00008342fc10374eUL, 0x00006605fc0f4fa3UL,
  0x0000a518fbe84940UL, 0x00007164fbe85013UL, 0x00008f71fbf64ee8UL, 0x0000ad68fc192d4bUL,
  0x0000e802fbf0550aUL, 0x0000ffaffbf1313aUL, 0x0000ed1afc233194UL, 0x0000f2c8fc175421UL,
  0x0000265dfbf154b7UL, 0x0000a1bffbdd4e62UL, 0x0000cec2fc124744UL, 0x0000adc7fbd85326UL,
  0x0000a29bfbd5571dUL, 0x00007a0cfbcf48a5UL, 0x0000bd98fbfa4e9fUL, 0x00006e09fbdd4c02UL,
  0x00005e2dfc114c3fUL, 0x0000a709fc134e27UL, 0x0000181afbe733bbUL, 0x0000c3c4fbea319eUL,
  0x0000150ffc094960UL, 0x00005262fbe34f7aUL, 0x0000aaa9fc1052bfUL, 0x000003acfbf43b82UL,
  0x00009678fc18451fUL, 0x00003022fbf54b93UL, 0x000043f3fbcb529aUL, 0x00008617fbda332fUL,
  0x0000aadafc023bb4UL, 0x000091d9fbe43257UL, 0x0000bc4bfbdf5527UL, 0x0000c0d4fbfb48c8UL,
  0x000005c5fbd930d7UL, 0x00009693fbf93250UL, 0x0000aa1ffc14478cUL, 0x0000830bfbfd31f5UL,
  0x00002cd0fbcb4bc3UL, 0x0000d032fc1754e4UL, 0x0000f8f8fc1d3665UL, 0x0000374ffc0333a9UL,
  0x00004b26fbca5058UL, 0x0000cb56fc08479dUL, 0x0000c7a0fc034c44UL, 0x00005a60fbdd5130UL,
  0x00006d0efbc25fb7UL, 0x0000c060fbe8317eUL, 0x00009d3ffc224dc6UL, 0x00005dc2fbf04a34UL,
  0x00000e05fbf64d4cUL, 0x00007d59fc0d46a8UL, 0x0000f21cfbd4561cUL, 0x00003278fbeb33b4UL,
  0x000077e9fbff4dc4UL, 0x00005c68fc204d3eUL, 0x0000af18fbed5464UL, 0x00008dd8fc00510eUL,
  0x00005661fbd54f1bUL, 0x000056f0fbc94137UL, 0x0000d1c8fbfe4944UL, 0x000086a5fbfc30e6UL,
  0x0000cbd1fc1a4f3fUL, 0x000080a7fbfb49fbUL, 0x0000c0a7fc2233cdUL, 0x00007ef3fbf72e23UL,
  0x00004b51fbe94690UL, 0x0000a5e2fbe34f00UL, 0x0000595efbe44bdcUL, 0x0000c08efc003804UL,
  0x000000b8fbd73146UL, 0x000000fbfbf94c9fUL, 0x0000ff56fbf54741UL, 0x00004c36fbfb3cf4UL,
  0x00001590fc2633f2UL, 0x0000e7f8fc024addUL, 0x0000547afbfb4a6eUL, 0x0000679ffbd44b89UL,
  0x00005fbdfbe7517aUL, 0x00001899fbe5372fUL, 0x00004170fbc750caUL, 0x00009309fc1430afUL,
  0x00007d63fc224977UL, 0x00005556fc16527dUL, 0x00008f94fc075112UL, 0x0000d2f2fbca589dUL,
  0x0000e660fbe14bf7UL, 0x00006602fbdd5923UL, 0x68000042008022a1UL, 0x1500000008000000UL,
  0x0007000068027c00UL, 0x0000400068070043UL, 0x680c004300000020UL, 0x1041104100000000UL,
  0x30007c00008020e1UL, 0x3002004308880300UL, 0x0000002b342e0000UL, 0x00000000300500c3UL,
  0x0000000800000000UL, 0x0000002400000080UL, 0x300c004200100000UL, 0x0000000700000006UL,
  0x00000008300d0043UL, 0x30110043342e00bfUL, 0x0000000000000000UL, 0x1c007c0000802041UL,
  0x1c02004308880184UL, 0x0000155870380000UL, 0x000000001c0500c3UL, 0x0000000000000000UL,
  0x0000002400000000UL, 0x1c0c004200100000UL, 0x0000000700000006UL, 0x000000011c0d0043UL,
  0x1c11004370384047UL, 0x0000000800000000UL, 0x24007c0000802081UL, 0x2402004300080108UL,
  0x00000010342e0080UL, 0x00000000240500c3UL, 0x0000000000000010UL, 0x0000002400000000UL,
  0x240c004200100000UL, 0x0000000700000006UL, 0x00000008240d0043UL, 0x24110043342e013fUL,
  0x0000000000000000UL, 0x0000000210007c00UL, 0x0000006410000424UL, 0x10007c0000000000UL,
  0x10007bc440000000UL, 0x0000000000000064UL, 0x0000000110007c00UL, 0x0000002b10067c00UL,
  0x0000000f100f0043UL, 0x10227c0000000005UL, 0x10247c0000000017UL, 0x2400200100000029UL,
  0x10d0003540007c00UL, 0x6800200164002001UL, 0x300020011c002001UL, 0x0000006424007fe4UL,
  0x10067c0000000000UL, 0x100f004300000000UL, 0x0000000000000000UL, 0x0000000010227c00UL,
  0x0000000010247c00UL, 0x0000000224007c00UL, 0x0000006424000424UL, 0x24007c0000000000UL,
  0x24007bc440000000UL, 0x0000000000000064UL, 0x40007c0000800081UL, 0x4000042400000002UL,
  0x0000000000000064UL, 0x4000000040007c00UL, 0x0000006440007bc4UL, 0x0080016100000000UL,
  0x0800000264007c00UL, 0x0000006464000424UL, 0x64007c0000000000UL, 0x64007bc448000000UL,
  0x0000000000000064UL, 0x68007c0000800281UL, 0x6800042408000002UL, 0x0000000000000064UL,
  0x4800000068007c00UL, 0x0000006468007bc4UL, 0x008002a100000000UL, 0x000000021c007c00UL,
  0x000000641c000424UL, 0x1c007c0000000000UL, 0x1c007bc440000000UL, 0x0000000000000064UL,
  0x30007c0000800041UL, 0x3000042400000002UL, 0x0000000000000064UL, 0x4000000030007c00UL,
  0x0000006430007bc4UL, 0x008000e100000000UL, 0x00802181000000bdUL, 0x10d0003444007c00UL,
  0x10800101440200e3UL, 0x10e3450500001100UL, 0xffff000000010080UL, 0x00000001ffff0000UL,
  0x00000000440a7c00UL, 0x00000000440d7c00UL, 0x5c00004200802241UL, 0x156000fc08000000UL,
  0x000900005c020123UL, 0x0000000f00000000UL, 0x0000007f0000000fUL, 0x0000000000000000UL,
  0x00000001060403f1UL, 0x000000005c0c0043UL, 0x5c0b7c0020422042UL, 0x5d00200300000001UL,
  0x0000d872fdfa2176UL, 0x0000db20fdf21f18UL, 0x000062f0fe0623dcUL, 0x0000e541fdf820ddUL,
  0x000068a2fdf6324dUL, 0x00001271fe1e4aa7UL, 0x00001902fe062279UL, 0x00001d9dfdf82d95UL,
  0x0000fa3ffe0420acUL, 0x000051dcfe012775UL, 0x00009aebfdef20c4UL, 0x0000bc22fe06243aUL,
  0x000014dcfe04303fUL, 0x00008946fdf224a5UL, 0x00002ebdfdf92b88UL, 0x0000f904fe0327fbUL,
  0x000027abfe082eb8UL, 0x00009aaafe002e41UL, 0x000084bbfe052660UL, 0x000044abfdf3230fUL,
  0x0000afd3fe0b2a1aUL, 0x0000432efe07245eUL, 0x00007006fdf22562UL, 0x00004b16fdfa20f2UL,
  0x000083bbfe032cd9UL, 0x00002fb2fe0022b0UL, 0x000033cafdf92eeaUL, 0x000097e8fdfe2c52UL,
  0x00001eb5fe0c2801UL, 0x00000e9dfe082f0bUL, 0x00002e12fdee263cUL, 0x0000d719fe0d3225UL,
  0x0000f537fdf73176UL, 0x000001f9fdf9250dUL, 0x00005d4dfdf52c3aUL, 0x0000eac9fdf51f28UL,
  0x00006f54fe0b208cUL, 0x00004d77fdf21edaUL, 0x0000170afe042b1fUL, 0x00001babfe011f16UL,
  0x00000e35fe033243UL, 0x00002a01fdf72ff8UL, 0x00004e03fdf81f0aUL, 0x00004f5bfdf82a6cUL,
  0x00002475fdf831b5UL, 0x000091ddfdfa2c9eUL, 0x00009be0fe012bcaUL, 0x00002efefdf129aeUL,
  0x000002b7fdf82df6UL, 0x0000969bfdef2e81UL, 0x00008426fe07273eUL, 0x0000e788fe02324dUL,
  0x00008c91fdf03012UL, 0x00007ee3fdf720ddUL, 0x00000f00fdf52419UL, 0x0000de0cfe0928ceUL,
  0x00009d86fe0a29abUL, 0x0000624cfe0923f0UL, 0x00007dfafdef2429UL, 0x0000a809fe042cd3UL,
  0x0000d7b2fe0321d9UL, 0x00004546fe052573UL, 0x0000eccdfdf92453UL, 0x00003235fdf92128UL,
  0x0000662cfdf81ee3UL, 0x0000801cfdee24d3UL, 0x000093a2fe0c3321UL, 0x000034cffdff29aeUL,
  0x0000ca9bfe082303UL, 0x0000650dfe08284fUL, 0x0000a957fe0c2b6bUL, 0x0000fce4fdf92271UL,
  0x00008662fe05271eUL, 0x000074affdfd321aUL, 0x000050fefdfc2b1cUL, 0x00006b95fe0125c6UL,
  0x0000a266fdf31ed9UL, 0x0000c9eefe0b2839UL, 0x0000f364fe012ad8UL, 0x0000beeafe072294UL,
  0x0000fd28fe012e28UL, 0x0000c9e1fe072883UL, 0x0000ccf4fdf6206aUL, 0x00008152fdf720f7UL,
  0x0000e9e6fe0a26e8UL, 0x00004566fe07248bUL, 0x000012b2fdf82490UL, 0x00009b0cfde82f79UL,
  0x0000e252fdf32b31UL, 0x00002b76fe0a29f8UL, 0x00002d66fe0430d1UL, 0x00008322fe052917UL,
  0x0000d719fdef2d23UL, 0x00001a6efdfa26c5UL, 0x0000f70ffdf12d80UL, 0x00006ed3fe002ce4UL,
  0x000096e3fdfa2f82UL, 0x0000b968fe002bf3UL, 0x0000028bfdfe28f6UL, 0x0000d81ffdfb287bUL,
  0x000056f0fdf6339fUL, 0x0000fe5cfdf42bfcUL, 0x0000fda1fdf01f0fUL, 0x0000fe74fe012e8aUL,
  0x000086f6fe062ae1UL, 0x0000660efdff280dUL, 0x0000d496fe0726b0UL, 0x000033d3fdf621b2UL,
  0x000078f9fdf9319bUL, 0x000089a1fe0b2c75UL, 0x00002a6afe01200bUL, 0x000090e9fe061f25UL,
  0x00008a0efdfb2d3aUL, 0x000064c4fe0421bcUL, 0x00006659fdfb31b7UL, 0x0000fa86fdf92f1dUL,
  0x00008b9afde92b7fUL, 0x0000aeb3fe082375UL, 0x00000f14fdee28ceUL, 0x0000e045fdec3257UL,
  0x0000f836fdf12639UL, 0x00006fa7fe01216cUL, 0x000012e0fdf22d86UL, 0x0000094cfe003197UL,
  0x0000567dfe032da6UL, 0x000075cbfe0332e4UL, 0x0000ed47fe062d00UL, 0x0000ab3efdf01fb3UL,
  0x6000004200802261UL, 0x1500000008000000UL, 0x0007000060027c00UL, 0x0000400060070043UL,
  0x600c004300000020UL, 0x1041104100000000UL, 0x20007c0000802061UL, 0x2002004308880300UL,
  0x0000002b342e0080UL, 0x00000000200500c3UL, 0x0000000800000000UL, 0x0000002400000080UL,
  0x200c004200100000UL, 0x0000000700000006UL, 0x00000008200d0043UL, 0x20110043342e013fUL,
  0x0000000000000000UL, 0x30007c00008020e1UL, 0x3002004308880184UL, 0x0000155870384010UL,
  0x00000000300500c3UL, 0x0000000000000000UL, 0x0000002400000000UL, 0x300c004200100000UL,
  0x0000000700000006UL, 0x00000001300d0043UL, 0x3011004370388057UL, 0x0000000800000000UL,
  0x2c007c00008020c1UL, 0x2c02004300080108UL, 0x00000010342e0000UL, 0x000000002c0500c3UL,
  0x0000000000000010UL, 0x0000002400000000UL, 0x2c0c004200100000UL, 0x0000000700000006UL,
  0x000000082c0d0043UL, 0x2c110043342e00bfUL, 0x0000000000000000UL, 0x0000000210007c00UL,
  0x0000006410000424UL, 0x10007c0000000000UL, 0x10007bc440000000UL, 0x0000000000000064UL,
  0x0000000110007c00UL, 0x0000002710087c00UL, 0x0000000710120043UL, 0x101e7c000000000fUL,
  0x10207c0000000019UL, 0x2c00200100000025UL, 0x10d0003544007c00UL, 0x600020015c002001UL,
  0x3000200120002001UL, 0x000000642c007fe4UL, 0x10087c0000000000UL, 0x1012004300000000UL,
  0x0000000000000000UL, 0x00000000101e7c00UL, 0x0000000010207c00UL, 0x000000022c007c00UL,
  0x000000642c000424UL, 0x2c007c0000000000UL, 0x2c007bc440000000UL, 0x0000000000000064UL,
  0x44007c00008000c1UL, 0x4400042400000002UL, 0x0000000000000064UL, 0x4000000044007c00UL,
  0x0000006444007bc4UL, 0x0080018100000000UL, 0x080000025c007c00UL, 0x000000645c000424UL,
  0x5c007c0000000000UL, 0x5c007bc448000000UL, 0x0000000000000064UL, 0x60007c0000800241UL,
  0x6000042408000002UL, 0x0000000000000064UL, 0x4800000060007c00UL, 0x0000006460007bc4UL,
  0x0080026100000000UL, 0x0000000220007c00UL, 0x0000006420000424UL, 0x20007c0000000000UL,
  0x20007bc440000000UL, 0x0000000000000064UL, 0x30007c0000800061UL, 0x3000042400000002UL,
  0x0000000000000064UL, 0x4000000030007c00UL, 0x0000006430007bc4UL, 0x008000e100000000UL,
  0x008021a1000000ddUL, 0x10d0003448007c00UL, 0x10800101480200e3UL, 0x10e3440400001100UL,
  0xffff000000010080UL, 0x00000001ffff0000UL, 0x00000000480a7c00UL, 0x00000000480d7c00UL,
  0x6400004200802281UL, 0x156000fc08000000UL, 0x0009800064020123UL, 0x0000000f00000000UL,
  0x0000007f0000000fUL, 0x0000000000000000UL, 0x00000001060403f1UL, 0x00000000640c0043UL,
  0x640b7c0020422042UL, 0x6500200300000001UL, 0x00003987fbfb4763UL, 0x00000d53fc052153UL,
  0x00008cb4fbfb21b2UL, 0x0000c251fbfc1f9bUL, 0x000094c9fbec29d7UL, 0x00007eebfbf42e9cUL,
  0x0000d311fbe929b9UL, 0x000098f8fc0e4110UL, 0x000080b9fc0c555aUL, 0x0000858dfc0823e0UL,
  0x00004ee0fc12211cUL, 0x0000ac4dfbfd1fe0UL, 0x0000bfe6fc051f1cUL, 0x00004e62fbf61e43UL,
  0x0000db5afc0922bfUL, 0x00006c1efbef29ddUL, 0x0000f3b3fbf720c5UL, 0x0000f30cfc0c6539UL,
  0x00002d59fbf01ea1UL, 0x0000b790fbef2b07UL, 0x00000f0efbfd236fUL, 0x00003581fc062031UL,
  0x00009f79fbf71eb8UL, 0x0000256afc044320UL, 0x000073d2fbed1eb8UL, 0x0000dd05fc0423a3UL,
  0x00005e7efc0e279bUL, 0x00006450fbf72834UL, 0x00009518fc0822abUL, 0x00005d51fbf31eaeUL,
  0x0000b335fbf854f2UL, 0x0000bf6cfc0171a2UL, 0x000012abfc10319dUL, 0x0000283dfc0f3614UL,
  0x0000986ffbec1e5fUL, 0x00000714fc063553UL, 0x00007d5dfc014253UL, 0x0000b9e3fbf41da8UL,
  0x0000e929fbfe4297UL, 0x0000d260fc0f232fUL, 0x00009b63fbf31e94UL, 0x0000324bfc104f73UL,
  0x00004f72fbf53b92UL, 0x00001630fc0c410eUL, 0x0000c1fefc095713UL, 0x00006073fc0f3fd0UL,
  0x0000a285fbe737a1UL, 0x000042aefc0d3627UL, 0x00004223fc0c6030UL, 0x000096b3fbf84526UL,
  0x00009d6ffc0a41c7UL, 0x0000f144fbed2180UL, 0x0000e4adfbf449daUL, 0x00007bcafbf920a1UL,
  0x00007390fc0a5572UL, 0x0000b972fc072469UL, 0x00005f75fbea1e9fUL, 0x00004e63fbf41e91UL,
  0x0000e8a3fbef22dfUL, 0x000051adfc0c3147UL, 0x00003557fc0e20d8UL, 0x0000301ffbf21ec3UL,
  0x0000416ffc0b401fUL, 0x0000aa21fc082a40UL, 0x00001debfc062b0dUL, 0x0000e2eafc0c48b4UL,
  0x0000467dfc0420bcUL, 0x00006950fbee2d32UL, 0x00003cdffbf61eaaUL, 0x00008cfafc0c3d91UL,
  0x00005a4ffbee1eb8UL, 0x0000cd2afbed2835UL, 0x00001e56fbec1eb8UL, 0x0000e054fc033ec2UL,
  0x00004fe1fbff4841UL, 0x000054affc0f6479UL, 0x0000c122fbf220c8UL, 0x00004542fbf7300fUL,
  0x00001c9cfc1340dbUL, 0x00002ff6fc0d3da9UL, 0x000042e4fbff1e90UL, 0x00001aa7fc0c50bfUL,
  0x00003e85fbeb2455UL, 0x0000b100fc003000UL, 0x0000c174fbf02479UL, 0x00009bebfbec1e74UL,
  0x0000e71bfbf92837UL, 0x0000c205fc0420cfUL, 0x0000e234fc092e29UL, 0x0000f360fbf11e7fUL,
  0x00001b74fc012159UL, 0x0000bca0fc0244c6UL, 0x0000c88bfbe9283bUL, 0x0000566efc0020edUL,
  0x00002268fbf72285UL, 0x00002e4bfbf02193UL, 0x000013fcfbf31e70UL, 0x00004256fbec1e83UL,
  0x0000b8befbf4261eUL, 0x00006d38fbfe35b4UL, 0x0000b8bdfbf52822UL, 0x000090fafc0e5aadUL,
  0x00005a8efbfd253fUL, 0x000087a1fc052abcUL, 0x00005732fbfe2151UL, 0x00002bdcfc076ad0UL,
  0x0000a8ebfc0e3196UL, 0x00003dcafbe9368cUL, 0x00007e0cfc003130UL, 0x0000ec85fc0a2272UL,
  0x00005d7efbee2086UL, 0x0000bb93fbf71fe3UL, 0x00000098fc012095UL, 0x0000b2ebfc0f598fUL,
  0x0000f92bfc0b2283UL, 0x000004e0fbf12e8fUL, 0x000095f3fc0022c5UL, 0x0000b3eefbec1ec7UL,
  0x000072a7fbf21ebcUL, 0x0000da63fc0746b2UL, 0x00008971fc022ecfUL, 0x00009502fbfb2938UL,
  0x0000fb60fc0e59fbUL, 0x00008179fc061e98UL, 0x0000e29efbe62ef9UL, 0x00006a0afbf220edUL,
  0x0000f4e1fc115fc5UL, 0x00005e93fbeb2109UL, 0x68000042008022a1UL, 0x1500000008000000UL,
  0x0007000068027c00UL, 0x0000400068070043UL, 0x680c004300000020UL, 0x1041104100000000UL,
  0x14007c0000802001UL, 0x1402004308880300UL, 0x0000002b342e0000UL, 0x00000000140500c3UL,
  0x0000000800000000UL, 0x0000002400000080UL, 0x140c004200100000UL, 0x0000000700000006UL,
  0x00000008140d0043UL, 0x14110043342e00bfUL, 0x0000000000000000UL, 0x30007c00008020e1UL,
  0x3002004308880184UL, 0x0000155870388020UL, 0x00000000300500c3UL, 0x0000000000000000UL,
  0x0000002400000000UL, 0x300c004200100000UL, 0x0000000700000006UL, 0x00000001300d0043UL,
  0x301100437038c067UL, 0x0000000800000000UL, 0x34007c0000802101UL, 0x3402004300080108UL,
  0x00000010342e0080UL, 0x00000000340500c3UL, 0x0000000000000010UL, 0x0000002400000000UL,
  0x340c004200100000UL, 0x0000000700000006UL, 0x00000008340d0043UL, 0x34110043342e013fUL,
  0x0000000000000000UL, 0x0000000210007c00UL, 0x0000006410000424UL, 0x10007c0000000000UL,
  0x10007bc440000000UL, 0x0000000000000064UL, 0x0000000110007c00UL, 0x0000002b100a7c00UL,
  0x0000000110150043UL, 0x10227c000000000fUL, 0x10247c000000001bUL, 0x3400200100000029UL,
  0x10d0003548007c00UL, 0x6800200164002001UL, 0x3000200114002001UL, 0x0000006434007fe4UL,
  0x100a7c0000000000UL, 0x1015004300000000UL, 0x0000000000000000UL, 0x0000000010227c00UL,
  0x0000000010247c00UL, 0x0000000234007c00UL, 0x0000006434000424UL, 0x34007c0000000000UL,
  0x34007bc440000000UL, 0x0000000000000064UL, 0x48007c0000800101UL, 0x4800042400000002UL,
  0x0000000000000064UL, 0x4000000048007c00UL, 0x0000006448007bc4UL, 0x008001a100000000UL,
  0x0800000264007c00UL, 0x0000006464000424UL, 0x64007c0000000000UL, 0x64007bc448000000UL,
  0x0000000000000064UL, 0x68007c0000800281UL, 0x6800042408000002UL, 0x0000000000000064UL,
  0x4800000068007c00UL, 0x0000006468007bc4UL, 0x008002a100000000UL, 0x0000000214007c00UL,
  0x0000006414000424UL, 0x14007c0000000000UL, 0x14007bc440000000UL, 0x0000000000000064UL,
  0x30007c0000800001UL, 0x3000042400000002UL, 0x0000000000000064UL, 0x4000000030007c00UL,
  0x0000006430007bc4UL, 0x008000e100000000UL, 0x00802141000000fdUL, 0x10d000343c007c00UL,
  0x108001013c0200e3UL, 0x10e3440400001100UL, 0xffff000000010080UL, 0x00000001ffff0000UL,
  0x000000003c0a7c00UL, 0x000000003c0d7c00UL, 0x5c00004200802241UL, 0x156000fc08000000UL,
  0x000900005c020123UL, 0x0000000f00000000UL, 0x0000007f0000000fUL, 0x0000000000000000UL,
  0x00000001060403f1UL, 0x000000005c0c0043UL, 0x5c0b7c0020422042UL, 0x5d00200300000001UL,
  0x00004466fdf81278UL, 0x00007819fdf7158eUL, 0x0000cc58fdfb2428UL, 0x0000e426fe031711UL,
  0x00008649fdfd1467UL, 0x0000c4dafe0016fdUL, 0x0000479bfe071d7eUL, 0x000004ecfdff13caUL,
  0x00001b4ffe0414d1UL, 0x00000ed1fe0225f8UL, 0x00004a9cfdfd2105UL, 0x00008e12fe0415a5UL,
  0x0000d826fdfa16c8UL, 0x000011bffdfd125bUL, 0x0000b247fdfd16d9UL, 0x0000684ffdf7144fUL,
  0x0000ec8bfe021604UL, 0x00009437fdf92366UL, 0x0000a95cfe012402UL, 0x00002f68fdf81533UL,
  0x0000e6c2fe032d87UL, 0x0000eec4fdf71abcUL, 0x0000d10afe001626UL, 0x00003642fdfe142dUL,
  0x0000e214fdfe14e4UL, 0x0000d8e6fdff14dbUL, 0x0000e5c1fe032073UL, 0x00009e56fdf7125eUL,
  0x000039e7fe02135cUL, 0x0000b2aafe062aefUL, 0x00006e52fdfc21d7UL, 0x0000d4c4fe0516f7UL,
  0x00000e8ffdf714f2UL, 0x0000e677fdfa1540UL, 0x00005580fe07182bUL, 0x0000a18cfdf9158bUL,
  0x00001554fdfd13a6UL, 0x00009190fdfd1257UL, 0x000056cffe001726UL, 0x00001fe3fdfa124dUL,
  0x000012dffe031690UL, 0x0000388dfe0416a1UL, 0x0000d26afdf61345UL, 0x0000d687fe051fd7UL,
  0x00007c3dfe06162cUL, 0x00005fe8fe042e8bUL, 0x00008f3cfdf9166fUL, 0x000037d2fdfe121dUL,
  0x00008199fe021677UL, 0x0000a663fdff131eUL, 0x0000a958fdfb1279UL, 0x0000daccfdfc25c8UL,
  0x0000b4d1fdf7125aUL, 0x0000251cfdfb1277UL, 0x0000ab8afdfb1445UL, 0x000037b9fe001362UL,
  0x00002907fdfa126aUL, 0x000068f5fdfd1a86UL, 0x00004647fe05474dUL, 0x0000d000fdfd145dUL,
  0x0000c04bfdff1288UL, 0x0000ddc7fdf91514UL, 0x00000b27fe002c9cUL, 0x0000e257fdfe125bUL,
  0x0000e2a4fdf714ddUL, 0x000054eafdf71462UL, 0x00006434fdfa1230UL, 0x00007cbbfe001c83UL,
  0x00003111fdf91707UL, 0x000011a4fdfe1f05UL, 0x0000d569fdfd11c8UL, 0x0000b877fe041fe8UL,
  0x00005fd7fdfd147cUL, 0x000027a8fdfb1c99UL, 0x00007c3afe0215fcUL, 0x00006a20fe0416e3UL,
  0x00006514fdf71369UL, 0x00008364fdf81257UL, 0x00002113fe063416UL, 0x000085a7fe001371UL,
  0x0000539bfdfc127cUL, 0x0000a3fefe0315eeUL, 0x000029e4fdf81932UL, 0x0000f9a7fe051e84UL,
  0x0000835bfdfa1264UL, 0x00004423fe031601UL, 0x00002a44fdf81388UL, 0x00000344fdfc1521UL,
  0x00003de9fdff1369UL, 0x0000cdd1fe0615acUL, 0x00009092fe06161dUL, 0x0000c117fe071683UL,
  0x0000c71afdf91278UL, 0x00006213fe071662UL, 0x0000a129fdfa14a8UL, 0x00003298fe00154eUL,
  0x0000a00dfdf71286UL, 0x00002e31fdfa1268UL, 0x0000a3c6fe0416fbUL, 0x00004d24fdff1714UL,
  0x00007f02fe0115e3UL, 0x0000c3acfe06172bUL, 0x00006afefdff13deUL, 0x00005a46fe002945UL,
  0x00006489fdfe1271UL, 0x0000dd11fe052a6fUL, 0x0000b754fe013180UL, 0x00008e26fdf81adeUL,
  0x0000f688fdfd14f7UL, 0x00007eb4fe00151eUL, 0x00009a9cfe0527ebUL, 0x0000ec74fe011797UL,
  0x00008f05fdfc15f5UL, 0x00009a3ffe0024d6UL, 0x0000457bfdfc1527UL, 0x0000f0c8fdf91278UL,
  0x0000d9d3fdfb1265UL, 0x00000010fe071a48UL, 0x0000c043fe0421d8UL, 0x00002498fdf8135aUL,
  0x000062e0fe0721d7UL, 0x00007eb1fe04257fUL, 0x00009f62fe01137eUL, 0x0000bf10fe051a09UL,
  0x00005d90fe04176fUL, 0x0000a63dfe00144eUL, 0x00008c71fe061b7cUL, 0x0000f94efe062434UL,
  0x6000004200802261UL, 0x1500000008000000UL, 0x0007000060027c00UL, 0x0000400060070043UL,
  0x600c004300000020UL, 0x1041104100000000UL, 0x38007c0000802121UL, 0x3802004308880300UL,
  0x0000002b342e0080UL, 0x00000000380500c3UL, 0x0000000800000000UL, 0x0000002400000080UL,
  0x380c004200100000UL, 0x0000000700000006UL, 0x00000008380d0043UL, 0x38110043342e013fUL,
  0x0000000000000000UL, 0x18007c0000802021UL, 0x1802004308880184UL, 0x000015587038c030UL,
  0x00000000180500c3UL, 0x0000000000000000UL, 0x0000002400000000UL, 0x180c004200100000UL,
  0x0000000700000006UL, 0x00000001180d0043UL, 0x1811004370390077UL, 0x0000000800000000UL,
  0x1c007c0000802041UL, 0x1c02004300080108UL, 0x00000010342e0000UL, 0x000000001c0500c3UL,
  0x0000000000000010UL, 0x0000002400000000UL, 0x1c0c004200100000UL, 0x0000000700000006UL,
  0x000000081c0d0043UL, 0x1c110043342e00bfUL, 0x0000000000000000UL, 0x0000000210007c00UL,
  0x0000006410000424UL, 0x10007c0000000000UL, 0x10007bc440000000UL, 0x0000000000000064UL,
  0x0000000110007c00UL, 0x0000002710047c00UL, 0x00000013100c0043UL, 0x101e7c0000000003UL,
  0x10207c0000000015UL, 0x1c00200100000025UL, 0x10d000353c007c00UL, 0x600020015c002001UL,
  0x3800200118002001UL, 0x000000641c007fe4UL, 0x10047c0000000000UL, 0x100c004300000000UL,
  0x0000000000000000UL, 0x00000000101e7c00UL, 0x0000000010207c00UL, 0x000000021c007c00UL,
  0x000000641c000424UL, 0x1c007c0000000000UL, 0x1c007bc440000000UL, 0x0000000000000064UL,
  0x3c007c0000800041UL, 0x3c00042400000002UL, 0x0000000000000064UL, 0x400000003c007c00UL,
  0x000000643c007bc4UL, 0x0080014100000000UL, 0x080000025c007c00UL, 0x000000645c000424UL,
  0x5c007c0000000000UL, 0x5c007bc448000000UL, 0x0000000000000064UL, 0x60007c0000800241UL,
  0x6000042408000002UL, 0x0000000000000064UL, 0x4800000060007c00UL, 0x0000006460007bc4UL,
  0x0080026100000000UL, 0x0000000218007c00UL, 0x0000006418000424UL, 0x18007c0000000000UL,
  0x18007bc440000000UL, 0x0000000000000064UL, 0x38007c0000800021UL, 0x3800042400000002UL,
  0x0000000000000064UL, 0x4000000038007c00UL, 0x0000006438007bc4UL, 0x0080012100000000UL,
  0x008021610000011dUL, 0x10d0003440007c00UL, 0x01800101400200e3UL, 0x10e7410100001100UL,
  0xffff000000010080UL, 0x00000001ffff0000UL, 0x00000000400a7c00UL, 0x00000000400d7c00UL,
  0x6400004200802281UL, 0x1500006008000000UL, 0x000b814064027c00UL, 0x5d5a7b5764070043UL,
  0x640c00430000c04cUL, 0x2042204200000000UL, 0x1c007c0000802041UL, 0x1c02004308880304UL,
  0x0000002b342e0000UL, 0x000000001c0500c3UL, 0x0000000100000000UL, 0x0000002400000080UL,
  0x1c0c004200100000UL, 0x0000000700000006UL, 0x000000011c0d0043UL, 0x1c110043342e00bfUL,
  0x0000000000000000UL, 0x38007c0000802121UL, 0x3802004308880184UL, 0x0000002b70390140UL,
  0x00000000380500c3UL, 0x0000000000000000UL, 0x0000002400000000UL, 0x380c004200100000UL,
  0x0000000700000006UL, 0x00000001380d0043UL, 0x3811004370390207UL, 0x0000000800000000UL,
  0x28007c00008020a1UL, 0x280200430008010cUL, 0x00000001342e0080UL, 0x00000000280500c3UL,
  0x0000000000000001UL, 0x0000002400000000UL, 0x280c004200100000UL, 0x0000000700000006UL,
  0x00000001280d0043UL, 0x28110043342e00c7UL, 0x0000000000000000UL, 0x0000000210007c00UL,
  0x0000006410000424UL, 0x10007c0000000000UL, 0x10007bc440000000UL, 0x0000000000000064UL,
  0x0000000110007c00UL, 0x0000002910077c00UL, 0x00000005100f0043UL, 0x10227c0000000013UL,
  0x2800200100000017UL, 0x10d0003540007c00UL, 0x1c00200164002001UL, 0x28007fe438002001UL,
  0x0000000000000064UL, 0x0000000010077c00UL, 0x00000000100f0043UL, 0x10227c0000000000UL,
  0x28007c0000000000UL, 0x2800042400000002UL, 0x0000000000000064UL, 0x4000000028007c00UL,
  0x0000006428007bc4UL, 0x008000a100000000UL, 0x0000000240007c00UL, 0x0000006440000424UL,
  0x40007c0000000000UL, 0x40007bc440000000UL, 0x0000000000000064UL, 0x64007c0000800161UL,
  0x6400042408000002UL, 0x0000000000000064UL, 0x4800000064007c00UL, 0x0000006464007bc4UL,
  0x0080028100000000UL, 0x000000021c007c00UL, 0x000000641c000424UL, 0x1c007c0000000000UL,
  0x1c007bc440000000UL, 0x0000000000000064UL, 0x38007c0000800041UL, 0x3800042400000002UL,
  0x0000000000000064UL, 0x4000000038007c00UL, 0x0000006438007bc4UL, 0x0080012100000000UL,
  0x000000000000000cUL
};

#define _ec_blob_network_2_address _ec_blob_network_2

// this macro returns true if _ec_blob_network_2 blob is encrypted and must be decrypted on the fly, false otherwise
#define LL_ATON_EC_MustDecryptBlob_network__ec_blob_network_2 false

// this function MUST be called ONLY ONCE once for initializing the network
bool LL_ATON_EC_Network_Init_network(void)
{
  return true;
}

// this function should be called before each inference
bool LL_ATON_EC_Inference_Init_network(void)
{
  return true;
}

#ifdef __cplusplus
}
#endif
